TRT-101000-EntropyCalibration2
input: 3e30f86c
/encoder/layers.0/Add_output_0: 3f143af7
ONNXTRT_Broadcast_191_output: 3b047011
/encoder/layers.1/self_attn/Add_output_0: 3d2bd481
/encoder/layers.0/self_attn/Mul_1_output_0: 3e8255f6
/encoder/layers.1/self_attn/Reshape_10_output_0: 3db4b5f0
/encoder/layers.1/linear2/MatMul_output_0: 3d700984
pos_embed_output: 3a0b46fe
/encoder/layers.0/self_attn/Transpose_1_output_0: 3ed8613b
/encoder/layers.0/self_attn/Gather_4_output_0: 3ede8967
/cls_head/MatMul_output_0: 3dcd5191
/encoder/layers.1/self_attn/Gather_5_output_0: 3d2bd481
ONNXTRT_Broadcast_384_output: 3b3867b1
onnx::MatMul_398_output: 3b1df5a4
/encoder/layers.0/self_attn/Reshape_9_output_0: 3e8e6b8c
/encoder/layers.1/self_attn/MatMul_output_0: 3d2b7dce
encoder.layers.1.self_attn.in_proj_bias_output: 3a4b3973
/encoder/layers.1/linear1/Add_output_0: 3d851505
ONNXTRT_Broadcast_240_output: 3a4b3973
output: 3dcb3aa5
/encoder/layers.1/linear2/Add_output_0: 3d634b19
/encoder/layers.0/self_attn/Softmax_output_0: 3c010996
ONNXTRT_Broadcast_374_output: 3b027a80
/encoder/layers.0/Add_1_output_0: 3d96b561
ONNXTRT_Broadcast_197_output: 3a5bd746
ONNXTRT_Broadcast_182_output: 3a084c81
/encoder/layers.1/self_attn/Transpose_output_0: 3d154b08
encoder.layers.0.linear2.bias_output: 3a5bd746
encoder.layers.0.linear1.bias_output: 3aa67c4d
/encoder/layers.1/self_attn/Squeeze_1_output_0: 3d2bd481
/Slice_output_0: 3a0b46fe
/Add_output_0: 3e317986
/encoder/layers.0/self_attn/Transpose_output_0: 3e317986
encoder.layers.1.linear1.bias_output: 3ab8864d
/encoder/layers.0/self_attn/Sqrt_2_output_0: 3b99745c
/encoder/layers.0/self_attn/Cast_2_output_0: 3d810a14
/encoder/layers.1/self_attn/Transpose_7_output_0: 3db4b5f0
/encoder/layers.1/linear1/MatMul_output_0: 3d847b5c
/encoder/layers.1/self_attn/Transpose_6_output_0: 3d1df626
/encoder/layers.0/self_attn/Gather_3_output_0: 3edb32a2
/encoder/layers.1/self_attn/Reshape_2_output_0: 3d2bd481
/encoder/layers.1/self_attn/Mul_1_output_0: 3ca62534
/encoder/layers.1/self_attn/Transpose_2_output_0: 3d0bb605
/encoder/layers.1/self_attn/Reshape_3_output_0: 3d0bb605
/encoder/layers.0/self_attn/MatMul_2_output_0: 3e8e6b8c
/encoder/layers.0/self_attn/Reshape_7_output_0: 3ede8967
/encoder/layers.1/Add_output_0: 3dbf148a
/encoder/layers.1/Relu_output_0: 3d3d9ac9
ONNXTRT_Broadcast_372_output: 3ab8864d
/encoder/layers.0/self_attn/Mul_2_output_0: 3e845235
/encoder/layers.0/self_attn/Reshape_4_output_0: 3ede8967
/encoder/layers.0/self_attn/MatMul_1_output_0: 41a5f8d8
/encoder/layers.1/self_attn/Reshape_4_output_0: 3d0c15dd
/encoder/layers.0/self_attn/Transpose_7_output_0: 3ebbee06
/encoder/layers.0/linear2/Add_output_0: 3d6ac497
/encoder/layers.0/self_attn/Reshape_6_output_0: 3edb32a2
/encoder/layers.0/self_attn/Gemm_output: 3ebb7e35
/encoder/layers.1/self_attn/Transpose_3_output_0: 3d0c15dd
ONNXTRT_Broadcast_175_output: 3b99745c
/encoder/layers.0/self_attn/Transpose_2_output_0: 3edb32a2
/encoder/layers.0/self_attn/Gather_5_output_0: 3ec28e0b
/encoder/layers.0/self_attn/Div_1_output_0: 3b367d3d
encoder.layers.0.self_attn.out_proj.weight_output: 3b1bddfd
ONNXTRT_Broadcast_386_output: 3a8af6d6
/encoder/layers.0/self_attn/Reshape_3_output_0: 3edb32a2
/encoder/layers.0/self_attn/Gemm_output_0: 3ebbee06
/encoder/layers.0/self_attn/Transpose_6_output_0: 3e8e6b8c
/encoder/layers.1/self_attn/Unsqueeze_1_output_0: 3d2bd481
/encoder/layers.0/self_attn/Constant_27_output_0_output: 3c010a14
/encoder/layers.0/self_attn/Reshape_5_output_0: 3ec28e0b
ONNXTRT_Broadcast_370_output: 3b357d72
ONNXTRT_Broadcast_177_output: 3b99745c
/encoder/layers.0/self_attn/Transpose_5_output_0: 3ede8967
onnx::MatMul_388_output: 3b49073e
ONNXTRT_Broadcast_output: 3b49073e
/encoder/layers.0/self_attn/MatMul_output_0: 3ed77ac8
encoder.layers.0.self_attn.in_proj_bias_output: 3a633d79
ONNXTRT_Broadcast_62_output: 3a633d79
/encoder/layers.0/self_attn/Add_output_0: 3ed8613b
/encoder/layers.1/self_attn/Gather_3_output_0: 3d0bb605
/encoder/layers.0/linear1/MatMul_output_0: 3d30f677
/encoder/layers.0/self_attn/Cast_3_output_0: 3b367d3d
cls_head.bias_output: 3a8af6d6
/encoder/layers.0/self_attn/Transpose_4_output_0: 3ec28e0b
/encoder/layers.1/self_attn/Constant_27_output_0_output: 3c010a14
encoder.layers.1.self_attn.out_proj.weight_output: 3b0cc40d
ONNXTRT_Broadcast_195_output: 3aa0f376
encoder.layers.1.linear2.bias_output: 3a255c41
/encoder/layers.1/self_attn/Div_1_output_0: 3b367d3d
/encoder/layers.1/self_attn/Transpose_4_output_0: 3d2bd481
/encoder/layers.1/self_attn/Sqrt_2_output_0: 3b99745c
/encoder/layers.0/self_attn/Squeeze_1_output_0: 3ed8613b
/encoder/layers.0/self_attn/Reshape_10_output_0: 3ebbee06
/encoder/layers.1/self_attn/Reshape_5_output_0: 3d2bd481
/encoder/layers.1/self_attn/Cast_2_output_0: 3d810a14
ONNXTRT_Broadcast_238_output: 3b1df5a4
onnx::MatMul_406_output: 3b357d72
/encoder/layers.1/self_attn/Gemm_output: 3dacb1c9
ONNXTRT_Broadcast_376_output: 3a255c41
onnx::MatMul_397_output: 3aa0f376
ONNXTRT_Broadcast_193_output: 3aa67c4d
/encoder/layers.1/self_attn/Cast_3_output_0: 3b367d3d
/encoder/layers.1/self_attn/Transpose_5_output_0: 3d0c15dd
/encoder/layers.1/self_attn/Mul_2_output_0: 3ca6972e
/encoder/layers.0/norm1/LayerNormalization_output_0: 3d0cdae5
/encoder/layers.1/self_attn/MatMul_1_output_0: 3d8c65a3
ONNXTRT_Broadcast_355_output: 3b99745c
/encoder/layers.1/self_attn/Reshape_6_output_0: 3d0bb605
/encoder/layers.1/self_attn/Sqrt_output_0: 3cb67d3d
/encoder/layers.0/self_attn/Reshape_8_output_0: 3ec28e0b
/encoder/layers.0/Relu_output_0: 3d31ab7a
/encoder/layers.0/self_attn/Softmax_output: 3c010996
onnx::MatMul_407_output: 3b027a80
ONNXTRT_Broadcast_353_output: 3b99745c
/encoder/layers.1/self_attn/Reshape_7_output_0: 3d0c15dd
/encoder/layers.1/norm1/LayerNormalization_output_0: 3cf5a128
/encoder/layers.1/self_attn/MatMul_2_output_0: 3d1df626
/encoder/layers.1/self_attn/Transpose_1_output_0: 3d2bd481
/encoder/layers.1/self_attn/Sqrt_1_output_0: 3b99745c
/encoder/layers.1/self_attn/Softmax_output: 3b3088d1
/encoder/layers.1/Add_1_output_0: 3d9b1233
/encoder/layers.1/norm2/LayerNormalization_output_0: 3d0a79f8
/encoder/layers.1/self_attn/Softmax_output_0: 3b3088d1
/encoder/layers.1/self_attn/Reshape_9_output_0: 3d1df626
/encoder/layers.0/self_attn/Transpose_3_output_0: 3ede8967
onnx::MatMul_396_output: 3b047011
/encoder/layers.1/self_attn/Reshape_8_output_0: 3d2bd481
/encoder/layers.0/linear1/Add_output_0: 3d343889
/encoder/layers.0/self_attn/Sqrt_output_0: 3cb67d3d
encoder.layers.1.self_attn.out_proj.bias_output: 39c291dc
/encoder/layers.0/self_attn/Sqrt_1_output_0: 3b99745c
encoder.layers.0.self_attn.out_proj.bias_output: 3a084c81
/encoder/layers.1/self_attn/Gemm_output_0: 3db4b5f0
/encoder/layers.0/norm2/LayerNormalization_output_0: 3d154b08
ONNXTRT_Broadcast_361_output: 39c291dc
onnx::MatMul_408_output: 3b3867b1
/encoder/layers.0/linear2/MatMul_output_0: 3d6aafbf
/encoder/layers.1/self_attn/Gather_4_output_0: 3d0c15dd
/encoder/layers.0/self_attn/Reshape_2_output_0: 3ed8613b
/encoder/layers.0/self_attn/Unsqueeze_1_output_0: 3ed8613b
